alignas(8) const unsigned char model[] = {
0x1C, 0x00, 0x00, 0x00, 0x54, 0x46, 0x4C, 0x33, 0x14, 0x00, 0x20, 0x00, 0x1C, 0x00, 0x18, 0x00, 0x14, 0x00, 0x10, 0x00, 0x0C, 0x00, 0x00, 0x00, 0x08, 0x00, 0x04, 0x00, 0x14, 0x00, 0x00, 0x00, 0x1C, 0x00, 0x00, 0x00, 0x90, 0x00, 0x00, 0x00, 0xE8, 0x00, 0x00, 0x00, 0xA8, 0x04, 0x00, 0x00, 0xB8, 0x04, 0x00, 0x00, 0xCC, 0x09, 0x00, 0x00, 0x03, 0x00, 0x00, 0x00, 0x01, 0x00, 0x00, 0x00, 0x10, 0x00, 0x00, 0x00, 0x00, 0x00, 0x0A, 0x00, 0x10, 0x00, 0x0C, 0x00, 0x08, 0x00, 0x04, 0x00, 0x0A, 0x00, 0x00, 0x00, 0x0C, 0x00, 0x00, 0x00, 0x1C, 0x00, 0x00, 0x00, 0x3C, 0x00, 0x00, 0x00, 0x0F, 0x00, 0x00, 0x00, 0x73, 0x65, 0x72, 0x76, 0x69, 0x6E, 0x67, 0x5F, 0x64, 0x65, 0x66, 0x61, 0x75, 0x6C, 0x74, 0x00, 0x01, 0x00, 0x00, 0x00, 0x04, 0x00, 0x00, 0x00, 0x98, 0xFF, 0xFF, 0xFF, 0x09, 0x00, 0x00, 0x00, 0x04, 0x00, 0x00, 0x00, 0x08, 0x00, 0x00, 0x00, 0x6F, 0x75, 0x74, 0x70, 0x75, 0x74, 0x5F, 0x30, 0x00, 0x00, 0x00, 0x00, 0x01, 0x00, 0x00, 0x00, 0x04, 0x00, 0x00, 0x00, 0x4E, 0xFB, 0xFF, 0xFF, 0x04, 0x00, 0x00, 0x00, 0x05, 0x00, 0x00, 0x00, 0x69, 0x6E, 0x70, 0x75, 0x74, 0x00, 0x00, 0x00, 0x02, 0x00, 0x00, 0x00, 0x34, 0x00, 0x00, 0x00, 0x04, 0x00, 0x00, 0x00, 0xDC, 0xFF, 0xFF, 0xFF, 0x0C, 0x00, 0x00, 0x00, 0x04, 0x00, 0x00, 0x00, 0x13, 0x00, 0x00, 0x00, 0x43, 0x4F, 0x4E, 0x56, 0x45, 0x52, 0x53, 0x49, 0x4F, 0x4E, 0x5F, 0x4D, 0x45, 0x54, 0x41, 0x44, 0x41, 0x54, 0x41, 0x00, 0x08, 0x00, 0x0C, 0x00, 0x08, 0x00, 0x04, 0x00, 0x08, 0x00, 0x00, 0x00, 0x0B, 0x00, 0x00, 0x00, 0x04, 0x00, 0x00, 0x00, 0x13, 0x00, 0x00, 0x00, 0x6D, 0x69, 0x6E, 0x5F, 0x72, 0x75, 0x6E, 0x74, 0x69, 0x6D, 0x65, 0x5F, 0x76, 0x65, 0x72, 0x73, 0x69, 0x6F, 0x6E, 0x00, 0x0D, 0x00, 0x00, 0x00, 0xBC, 0x03, 0x00, 0x00, 0xB4, 0x03, 0x00, 0x00, 0x64, 0x03, 0x00, 0x00, 0x14, 0x01, 0x00, 0x00, 0xFC, 0x00, 0x00, 0x00, 0xCC, 0x00, 0x00, 0x00, 0xB4, 0x00, 0x00, 0x00, 0xAC, 0x00, 0x00, 0x00, 0xA4, 0x00, 0x00, 0x00, 0x9C, 0x00, 0x00, 0x00, 0x94, 0x00, 0x00, 0x00, 0x74, 0x00, 0x00, 0x00, 0x04, 0x00, 0x00, 0x00, 0xF6, 0xFB, 0xFF, 0xFF, 0x04, 0x00, 0x00, 0x00, 0x60, 0x00, 0x00, 0x00, 0x0C, 0x00, 0x00, 0x00, 0x08, 0x00, 0x0E, 0x00, 0x08, 0x00, 0x04, 0x00, 0x08, 0x00, 0x00, 0x00, 0x10, 0x00, 0x00, 0x00, 0x28, 0x00, 0x00, 0x00, 0x00, 0x00, 0x06, 0x00, 0x08, 0x00, 0x04, 0x00, 0x06, 0x00, 0x00, 0x00, 0x04, 0x00, 0x00, 0x00, 0x01, 0x00, 0x00, 0x00, 0xEA, 0x03, 0x00, 0x00, 0x0C, 0x00, 0x18, 0x00, 0x14, 0x00, 0x10, 0x00, 0x0C, 0x00, 0x04, 0x00, 0x0C, 0x00, 0x00, 0x00, 0x7D, 0x54, 0x39, 0x9D, 0xD6, 0x73, 0x65, 0x30, 0x02, 0x00, 0x00, 0x00, 0x02, 0x00, 0x00, 0x00, 0x04, 0x00, 0x00, 0x00, 0x06, 0x00, 0x00, 0x00, 0x32, 0x2E, 0x31, 0x38, 0x2E, 0x30, 0x00, 0x00, 0x62, 0xFC, 0xFF, 0xFF, 0x04, 0x00, 0x00, 0x00, 0x10, 0x00, 0x00, 0x00, 0x31, 0x2E, 0x35, 0x2E, 0x30, 0x00, 0x00, 0x00, 0x00, 0x00, 0x00, 0x00, 0x00, 0x00, 0x00, 0x00, 0x04, 0xF8, 0xFF, 0xFF, 0x08, 0xF8, 0xFF, 0xFF, 0x0C, 0xF8, 0xFF, 0xFF, 0x10, 0xF8, 0xFF, 0xFF, 0x8E, 0xFC, 0xFF, 0xFF, 0x04, 0x00, 0x00, 0x00, 0x08, 0x00, 0x00, 0x00, 0xFF, 0xFF, 0xFF, 0xFF, 0x12, 0x00, 0x00, 0x00, 0xA2, 0xFC, 0xFF, 0xFF, 0x04, 0x00, 0x00, 0x00, 0x20, 0x00, 0x00, 0x00, 0x90, 0xD5, 0xA6, 0x3C, 0x6A, 0x38, 0x8B, 0x3D, 0xFF, 0x1B, 0x21, 0x3C, 0x78, 0x55, 0xAF, 0xBC, 0xDB, 0x1D, 0x2A, 0xBD, 0x48, 0x33, 0xDB, 0x3A, 0x4D, 0x83, 0x65, 0xBD, 0xEB, 0xF6, 0xDF, 0x3C, 0xCE, 0xFC, 0xFF, 0xFF, 0x04, 0x00, 0x00, 0x00, 0x08, 0x00, 0x00, 0x00, 0x4F, 0x1A, 0x28, 0xBC, 0x4C, 0x1A, 0x28, 0x3C, 0xE2, 0xFC, 0xFF, 0xFF, 0x04, 0x00, 0x00, 0x00, 0x40, 0x02, 0x00, 0x00, 0xC5, 0x71, 0xE1, 0xBD, 0xF7, 0x0D, 0x9B, 0xBE, 0x7B, 0xBD, 0x15, 0xBE, 0x22, 0xD3, 0xD2, 0xBE, 0x48, 0xFE, 0xF0, 0x3D, 0xB1, 0xB9, 0x02, 0x3F, 0xA0, 0xE1, 0xD5, 0x3E, 0xBE, 0x84, 0x26, 0xBD, 0x14, 0x71, 0xE6, 0x3E, 0x48, 0x83, 0xAD, 0xBE, 0x62, 0xAB, 0x97, 0x3D, 0x1D, 0xFD, 0xDD, 0xBE, 0x20, 0x89, 0xBC, 0x3E, 0x30, 0xF6, 0x29, 0xBE, 0x6A, 0x7F, 0x93, 0xBE, 0x27, 0xCF, 0xF0, 0x3D, 0x94, 0xD0, 0xB4, 0xBE, 0x15, 0xDC, 0xE5, 0xBE, 0x0A, 0xFA, 0x82, 0xBE, 0x43, 0xDE, 0xA6, 0x3E, 0xAA, 0xB6, 0x28, 0xBB, 0x37, 0x65, 0xB5, 0xBE, 0xF3, 0x72, 0x97, 0x3D, 0xFC, 0x69, 0x5A, 0x3E, 0x76, 0xAB, 0x13, 0x3F, 0xF3, 0xC9, 0x0F, 0xBE, 0x6C, 0x0E, 0x00, 0xBE, 0x01, 0xDC, 0x16, 0xBD, 0x9C, 0x00, 0x81, 0xBE, 0x0D, 0xDF, 0x37, 0xBC, 0x5B, 0x8E, 0xD1, 0x3D, 0x05, 0xD8, 0x7F, 0x3D, 0xEE, 0xDA, 0x1D, 0x3F, 0xEC, 0x32, 0x77, 0x3E, 0x48, 0x7C, 0xAA, 0x3E, 0xB4, 0xDF, 0xDF, 0xBD, 0x68, 0x3B, 0x8F, 0x3C, 0x25, 0x46, 0x04, 0x3F, 0x3B, 0xA5, 0x17, 0xBF, 0x26, 0x70, 0xDE, 0x3E, 0xD7, 0x09, 0xCA, 0x3E, 0x4B, 0x7A, 0x07, 0x3E, 0x29, 0x60, 0x9D, 0x3E, 0x86, 0x0D, 0xA0, 0x3D, 0x08, 0x40, 0x31, 0xBE, 0x6C, 0xB1, 0x91, 0x3D, 0x3A, 0x44, 0xCA, 0xBE, 0x36, 0xEE, 0xB4, 0xBD, 0x32, 0x27, 0x6C, 0x3E, 0x7F, 0x65, 0x22, 0x3D, 0xF8, 0xDE, 0x87, 0x3D, 0x0D, 0x59, 0x9F, 0xBE, 0x60, 0xC2, 0x2E, 0x3E, 0x39, 0x68, 0xC5, 0x3E, 0xA1, 0xB0, 0x2D, 0x3E, 0x14, 0xA0, 0xB1, 0xBE, 0xCC, 0x6A, 0xDC, 0xBE, 0x8D, 0x9D, 0xDF, 0x3E, 0x46, 0xA1, 0x5E, 0xBE, 0xD0, 0x85, 0x73, 0x3E, 0x6D, 0xE7, 0xE7, 0xBD, 0x8C, 0x96, 0x6E, 0xBE, 0x88, 0x08, 0xFB, 0x3B, 0x5D, 0x9F, 0x76, 0x3E, 0x6A, 0x3D, 0x03, 0xBF, 0x52, 0x6C, 0x8B, 0xBE, 0xE7, 0x69, 0xB3, 0xBC, 0x54, 0x7F, 0xEC, 0x3E, 0x8E, 0x8D, 0x05, 0x3E, 0xD8, 0xAB, 0x54, 0x3E, 0x06, 0x0C, 0x2D, 0x3E, 0xE5, 0xC2, 0xFD, 0x3D, 0xCD, 0xBC, 0x9D, 0x3E, 0x7A, 0xD5, 0x00, 0xBF, 0x82, 0x00, 0xE9, 0xBD, 0xC2, 0x24, 0x0E, 0x3E, 0x40, 0x52, 0x0B, 0xBE, 0x3D, 0x1F, 0xC4, 0x3E, 0xD3, 0x5E, 0x08, 0xBD, 0x58, 0x7C, 0x78, 0xBE, 0xD4, 0xF1, 0x9B, 0x3E, 0xD7, 0x76, 0xC0, 0xBE, 0x1F, 0x65, 0xCB, 0xBE, 0x73, 0xF0, 0x80, 0x3D, 0xB0, 0xE7, 0x2E, 0x3E, 0x14, 0xB7, 0xBD, 0x3E, 0x23, 0x6F, 0x92, 0x3E, 0x3D, 0xAC, 0x32, 0xBE, 0x68, 0xA7, 0xD5, 0xBC, 0x0D, 0x1E, 0x96, 0x3E, 0xDB, 0x22, 0x6D, 0x3D, 0x5D, 0x6E, 0x03, 0x3F, 0xFD, 0x63, 0x6C, 0x3D, 0xC8, 0xD6, 0xF8, 0xBD, 0x82, 0xB2, 0x88, 0x3E, 0xB8, 0xCA, 0x6D, 0xBE, 0x00, 0x05, 0x9B, 0xBE, 0x19, 0xF2, 0xE1, 0x3D, 0xE2, 0xE8, 0x9B, 0xBE, 0x9F, 0x1F, 0x59, 0xBD, 0x4D, 0xD4, 0xF0, 0x3E, 0x3A, 0x28, 0xD2, 0x3E, 0x65, 0xDD, 0xC4, 0xBE, 0x7B, 0xF9, 0xAA, 0x3E, 0xDC, 0x7C, 0xA5, 0xBE, 0x3B, 0x61, 0x3D, 0xBE, 0x9F, 0xC6, 0x09, 0x3F, 0xDD, 0xF7, 0x1D, 0xBE, 0xC2, 0x89, 0x2A, 0xBD, 0x29, 0x44, 0xAF, 0xBE, 0x28, 0xC5, 0x51, 0xBE, 0x4A, 0xA7, 0xBE, 0xBE, 0x7E, 0x5F, 0x60, 0x3E, 0x8C, 0x1A, 0xC5, 0x3E, 0x4D, 0x1E, 0xC8, 0x3E, 0x7C, 0x58, 0xA2, 0xBE, 0x3B, 0x4D, 0x1C, 0xBE, 0xE4, 0x66, 0x9B, 0xBD, 0x08, 0x0D, 0xBF, 0xBC, 0xF0, 0x2A, 0x59, 0x3E, 0x77, 0x82, 0x5B, 0xBE, 0xD2, 0x1F, 0x97, 0x3E, 0x3A, 0xCF, 0xF5, 0x3D, 0x91, 0xD1, 0xF5, 0xBD, 0xBB, 0x42, 0xA9, 0xBD, 0xED, 0xCC, 0x7D, 0xBE, 0x0F, 0x5D, 0x2F, 0xBD, 0x2E, 0x38, 0xD8, 0xBE, 0x2C, 0xAB, 0xB7, 0x3E, 0x36, 0x1F, 0xB9, 0xBE, 0x09, 0xBB, 0xC0, 0xBE, 0x1E, 0xD1, 0x8E, 0xBD, 0x4C, 0xAC, 0x70, 0xBD, 0xDE, 0x22, 0xE1, 0xBE, 0x6E, 0x1C, 0x9B, 0x3D, 0x2B, 0x62, 0xBF, 0x3E, 0x44, 0xA4, 0xB3, 0xBD, 0xC4, 0x39, 0x71, 0xBE, 0xBB, 0xD8, 0x1E, 0x3E, 0x0F, 0x69, 0x88, 0x3D, 0x73, 0xB0, 0x15, 0x3E, 0xF3, 0xCE, 0x15, 0xBE, 0x5F, 0x6F, 0x6F, 0x3E, 0xEF, 0x0C, 0x76, 0x3E, 0x2E, 0xFF, 0xFF, 0xFF, 0x04, 0x00, 0x00, 0x00, 0x40, 0x00, 0x00, 0x00, 0x24, 0xE7, 0xD3, 0x3E, 0xBD, 0x63, 0xA0, 0x3E, 0xB9, 0xAD, 0xA8, 0x3E, 0x9D, 0xDA, 0x1C, 0xBF, 0x64, 0xE5, 0x24, 0xBE, 0x71, 0xAF, 0xE8, 0x3D, 0xE2, 0xFA, 0x6D, 0xBE, 0x78, 0x17, 0xAD, 0x3E, 0x33, 0x7A, 0x35, 0xBF, 0xBD, 0x85, 0x3C, 0x3F, 0x4C, 0xA5, 0x0A, 0x3E, 0x10, 0xB8, 0x5C, 0xBF, 0xD3, 0x97, 0x0A, 0x3E, 0x7A, 0xA5, 0x4C, 0xBD, 0x4C, 0xE2, 0x16, 0xBF, 0x8B, 0xC5, 0x47, 0x3E, 0x00, 0xFB, 0xFF, 0xFF, 0x04, 0xFB, 0xFF, 0xFF, 0x0F, 0x00, 0x00, 0x00, 0x4D, 0x4C, 0x49, 0x52, 0x20, 0x43, 0x6F, 0x6E, 0x76, 0x65, 0x72, 0x74, 0x65, 0x64, 0x2E, 0x00, 0x01, 0x00, 0x00, 0x00, 0x14, 0x00, 0x00, 0x00, 0x00, 0x00, 0x0E, 0x00, 0x18, 0x00, 0x14, 0x00, 0x10, 0x00, 0x0C, 0x00, 0x08, 0x00, 0x04, 0x00, 0x0E, 0x00, 0x00, 0x00, 0x14, 0x00, 0x00, 0x00, 0x1C, 0x00, 0x00, 0x00, 0x14, 0x01, 0x00, 0x00, 0x18, 0x01, 0x00, 0x00, 0x1C, 0x01, 0x00, 0x00, 0x04, 0x00, 0x00, 0x00, 0x6D, 0x61, 0x69, 0x6E, 0x00, 0x00, 0x00, 0x00, 0x04, 0x00, 0x00, 0x00, 0xD8, 0x00, 0x00, 0x00, 0x88, 0x00, 0x00, 0x00, 0x40, 0x00, 0x00, 0x00, 0x04, 0x00, 0x00, 0x00, 0x92, 0xFF, 0xFF, 0xFF, 0x1C, 0x00, 0x00, 0x00, 0x00, 0x00, 0x00, 0x09, 0x1C, 0x00, 0x00, 0x00, 0x20, 0x00, 0x00, 0x00, 0x02, 0x00, 0x00, 0x00, 0x00, 0x00, 0x06, 0x00, 0x08, 0x00, 0x04, 0x00, 0x06, 0x00, 0x00, 0x00, 0x00, 0x00, 0x80, 0x3F, 0x01, 0x00, 0x00, 0x00, 0x09, 0x00, 0x00, 0x00, 0x01, 0x00, 0x00, 0x00, 0x08, 0x00, 0x00, 0x00, 0xCA, 0xFF, 0xFF, 0xFF, 0x14, 0x00, 0x00, 0x00, 0x00, 0x00, 0x00, 0x08, 0x10, 0x00, 0x00, 0x00, 0x14, 0x00, 0x00, 0x00, 0x01, 0x00, 0x00, 0x00, 0xBC, 0xFB, 0xFF, 0xFF, 0x01, 0x00, 0x00, 0x00, 0x08, 0x00, 0x00, 0x00, 0x03, 0x00, 0x00, 0x00, 0x07, 0x00, 0x00, 0x00, 0x01, 0x00, 0x00, 0x00, 0x03, 0x00, 0x00, 0x00, 0x00, 0x00, 0x0E, 0x00, 0x1A, 0x00, 0x14, 0x00, 0x10, 0x00, 0x0C, 0x00, 0x0B, 0x00, 0x04, 0x00, 0x0E, 0x00, 0x00, 0x00, 0x1C, 0x00, 0x00, 0x00, 0x00, 0x00, 0x00, 0x08, 0x1C, 0x00, 0x00, 0x00, 0x20, 0x00, 0x00, 0x00, 0x01, 0x00, 0x00, 0x00, 0x00, 0x00, 0x06, 0x00, 0x08, 0x00, 0x07, 0x00, 0x06, 0x00, 0x00, 0x00, 0x00, 0x00, 0x00, 0x03, 0x01, 0x00, 0x00, 0x00, 0x07, 0x00, 0x00, 0x00, 0x03, 0x00, 0x00, 0x00, 0x06, 0x00, 0x00, 0x00, 0x02, 0x00, 0x00, 0x00, 0x04, 0x00, 0x00, 0x00, 0x00, 0x00, 0x0A, 0x00, 0x0C, 0x00, 0x00, 0x00, 0x08, 0x00, 0x04, 0x00, 0x0A, 0x00, 0x00, 0x00, 0x08, 0x00, 0x00, 0x00, 0x0C, 0x00, 0x00, 0x00, 0x01, 0x00, 0x00, 0x00, 0x06, 0x00, 0x00, 0x00, 0x02, 0x00, 0x00, 0x00, 0x00, 0x00, 0x00, 0x00, 0x05, 0x00, 0x00, 0x00, 0x01, 0x00, 0x00, 0x00, 0x09, 0x00, 0x00, 0x00, 0x01, 0x00, 0x00, 0x00, 0x00, 0x00, 0x00, 0x00, 0x0A, 0x00, 0x00, 0x00, 0x6C, 0x03, 0x00, 0x00, 0x14, 0x03, 0x00, 0x00, 0xBC, 0x02, 0x00, 0x00, 0x80, 0x02, 0x00, 0x00, 0x44, 0x02, 0x00, 0x00, 0x04, 0x02, 0x00, 0x00, 0x88, 0x01, 0x00, 0x00, 0xE4, 0x00, 0x00, 0x00, 0x60, 0x00, 0x00, 0x00, 0x04, 0x00, 0x00, 0x00, 0xD2, 0xFC, 0xFF, 0xFF, 0x00, 0x00, 0x00, 0x01, 0x14, 0x00, 0x00, 0x00, 0x1C, 0x00, 0x00, 0x00, 0x1C, 0x00, 0x00, 0x00, 0x0A, 0x00, 0x00, 0x00, 0x34, 0x00, 0x00, 0x00, 0x02, 0x00, 0x00, 0x00, 0xFF, 0xFF, 0xFF, 0xFF, 0x02, 0x00, 0x00, 0x00, 0xB8, 0xFC, 0xFF, 0xFF, 0x1B, 0x00, 0x00, 0x00, 0x53, 0x74, 0x61, 0x74, 0x65, 0x66, 0x75, 0x6C, 0x50, 0x61, 0x72, 0x74, 0x69, 0x74, 0x69, 0x6F, 0x6E, 0x65, 0x64, 0x43, 0x61, 0x6C, 0x6C, 0x5F, 0x31, 0x3A, 0x30, 0x00, 0x02, 0x00, 0x00, 0x00, 0x01, 0x00, 0x00, 0x00, 0x02, 0x00, 0x00, 0x00, 0x2A, 0xFD, 0xFF, 0xFF, 0x00, 0x00, 0x00, 0x01, 0x14, 0x00, 0x00, 0x00, 0x1C, 0x00, 0x00, 0x00, 0x1C, 0x00, 0x00, 0x00, 0x09, 0x00, 0x00, 0x00, 0x5C, 0x00, 0x00, 0x00, 0x02, 0x00, 0x00, 0x00, 0xFF, 0xFF, 0xFF, 0xFF, 0x02, 0x00, 0x00, 0x00, 0x10, 0xFD, 0xFF, 0xFF, 0x42, 0x00, 0x00, 0x00, 0x73, 0x65, 0x71, 0x75, 0x65, 0x6E, 0x74, 0x69, 0x61, 0x6C, 0x5F, 0x35, 0x5F, 0x31, 0x2F, 0x64, 0x65, 0x6E, 0x73, 0x65, 0x5F, 0x31, 0x31, 0x5F, 0x31, 0x2F, 0x4D, 0x61, 0x74, 0x4D, 0x75, 0x6C, 0x3B, 0x73, 0x65, 0x71, 0x75, 0x65, 0x6E, 0x74, 0x69, 0x61, 0x6C, 0x5F, 0x35, 0x5F, 0x31, 0x2F, 0x64, 0x65, 0x6E, 0x73, 0x65, 0x5F, 0x31, 0x31, 0x5F, 0x31, 0x2F, 0x42, 0x69, 0x61, 0x73, 0x41, 0x64, 0x64, 0x00, 0x00, 0x02, 0x00, 0x00, 0x00, 0x01, 0x00, 0x00, 0x00, 0x02, 0x00, 0x00, 0x00, 0xAA, 0xFD, 0xFF, 0xFF, 0x00, 0x00, 0x00, 0x01, 0x14, 0x00, 0x00, 0x00, 0x1C, 0x00, 0x00, 0x00, 0x1C, 0x00, 0x00, 0x00, 0x08, 0x00, 0x00, 0x00, 0x7C, 0x00, 0x00, 0x00, 0x02, 0x00, 0x00, 0x00, 0xFF, 0xFF, 0xFF, 0xFF, 0x08, 0x00, 0x00, 0x00, 0x90, 0xFD, 0xFF, 0xFF, 0x62, 0x00, 0x00, 0x00, 0x73, 0x65, 0x71, 0x75, 0x65, 0x6E, 0x74, 0x69, 0x61, 0x6C, 0x5F, 0x35, 0x5F, 0x31, 0x2F, 0x64, 0x65, 0x6E, 0x73, 0x65, 0x5F, 0x31, 0x30, 0x5F, 0x31, 0x2F, 0x4D, 0x61, 0x74, 0x4D, 0x75, 0x6C, 0x3B, 0x73, 0x65, 0x71, 0x75, 0x65, 0x6E, 0x74, 0x69, 0x61, 0x6C, 0x5F, 0x35, 0x5F, 0x31, 0x2F, 0x64, 0x65, 0x6E, 0x73, 0x65, 0x5F, 0x31, 0x30, 0x5F, 0x31, 0x2F, 0x52, 0x65, 0x6C, 0x75, 0x36, 0x3B, 0x73, 0x65, 0x71, 0x75, 0x65, 0x6E, 0x74, 0x69, 0x61, 0x6C, 0x5F, 0x35, 0x5F, 0x31, 0x2F, 0x64, 0x65, 0x6E, 0x73, 0x65, 0x5F, 0x31, 0x30, 0x5F, 0x31, 0x2F, 0x42, 0x69, 0x61, 0x73, 0x41, 0x64, 0x64, 0x00, 0x00, 0x02, 0x00, 0x00, 0x00, 0x01, 0x00, 0x00, 0x00, 0x08, 0x00, 0x00, 0x00, 0x4A, 0xFE, 0xFF, 0xFF, 0x00, 0x00, 0x00, 0x01, 0x14, 0x00, 0x00, 0x00, 0x1C, 0x00, 0x00, 0x00, 0x1C, 0x00, 0x00, 0x00, 0x07, 0x00, 0x00, 0x00, 0x3C, 0x00, 0x00, 0x00, 0x02, 0x00, 0x00, 0x00, 0xFF, 0xFF, 0xFF, 0xFF, 0x12, 0x00, 0x00, 0x00, 0x30, 0xFE, 0xFF, 0xFF, 0x22, 0x00, 0x00, 0x00, 0x73, 0x65, 0x71, 0x75, 0x65, 0x6E, 0x74, 0x69, 0x61, 0x6C, 0x5F, 0x35, 0x5F, 0x31, 0x2F, 0x66, 0x6C, 0x61, 0x74, 0x74, 0x65, 0x6E, 0x5F, 0x32, 0x5F, 0x31, 0x2F, 0x52, 0x65, 0x73, 0x68, 0x61, 0x70, 0x65, 0x00, 0x00, 0x02, 0x00, 0x00, 0x00, 0x01, 0x00, 0x00, 0x00, 0x12, 0x00, 0x00, 0x00, 0x00, 0x00, 0x16, 0x00, 0x1C, 0x00, 0x18, 0x00, 0x17, 0x00, 0x10, 0x00, 0x0C, 0x00, 0x08, 0x00, 0x00, 0x00, 0x00, 0x00, 0x00, 0x00, 0x07, 0x00, 0x16, 0x00, 0x00, 0x00, 0x00, 0x00, 0x00, 0x01, 0x14, 0x00, 0x00, 0x00, 0x14, 0x00, 0x00, 0x00, 0x06, 0x00, 0x00, 0x00, 0x00, 0x00, 0x00, 0x02, 0x1C, 0x00, 0x00, 0x00, 0x9C, 0xFE, 0xFF, 0xFF, 0x0F, 0x00, 0x00, 0x00, 0x61, 0x72, 0x69, 0x74, 0x68, 0x2E, 0x63, 0x6F, 0x6E, 0x73, 0x74, 0x61, 0x6E, 0x74, 0x34, 0x00, 0x01, 0x00, 0x00, 0x00, 0x02, 0x00, 0x00, 0x00, 0x52, 0xFF, 0xFF, 0xFF, 0x00, 0x00, 0x00, 0x01, 0x10, 0x00, 0x00, 0x00, 0x10, 0x00, 0x00, 0x00, 0x05, 0x00, 0x00, 0x00, 0x1C, 0x00, 0x00, 0x00, 0xD4, 0xFE, 0xFF, 0xFF, 0x0F, 0x00, 0x00, 0x00, 0x61, 0x72, 0x69, 0x74, 0x68, 0x2E, 0x63, 0x6F, 0x6E, 0x73, 0x74, 0x61, 0x6E, 0x74, 0x33, 0x00, 0x01, 0x00, 0x00, 0x00, 0x08, 0x00, 0x00, 0x00, 0x8A, 0xFF, 0xFF, 0xFF, 0x00, 0x00, 0x00, 0x01, 0x10, 0x00, 0x00, 0x00, 0x10, 0x00, 0x00, 0x00, 0x04, 0x00, 0x00, 0x00, 0x1C, 0x00, 0x00, 0x00, 0x0C, 0xFF, 0xFF, 0xFF, 0x0F, 0x00, 0x00, 0x00, 0x61, 0x72, 0x69, 0x74, 0x68, 0x2E, 0x63, 0x6F, 0x6E, 0x73, 0x74, 0x61, 0x6E, 0x74, 0x32, 0x00, 0x01, 0x00, 0x00, 0x00, 0x02, 0x00, 0x00, 0x00, 0xC2, 0xFF, 0xFF, 0xFF, 0x00, 0x00, 0x00, 0x01, 0x10, 0x00, 0x00, 0x00, 0x10, 0x00, 0x00, 0x00, 0x03, 0x00, 0x00, 0x00, 0x1C, 0x00, 0x00, 0x00, 0x44, 0xFF, 0xFF, 0xFF, 0x0F, 0x00, 0x00, 0x00, 0x61, 0x72, 0x69, 0x74, 0x68, 0x2E, 0x63, 0x6F, 0x6E, 0x73, 0x74, 0x61, 0x6E, 0x74, 0x31, 0x00, 0x02, 0x00, 0x00, 0x00, 0x08, 0x00, 0x00, 0x00, 0x12, 0x00, 0x00, 0x00, 0x00, 0x00, 0x16, 0x00, 0x18, 0x00, 0x14, 0x00, 0x00, 0x00, 0x10, 0x00, 0x0C, 0x00, 0x08, 0x00, 0x00, 0x00, 0x00, 0x00, 0x00, 0x00, 0x07, 0x00, 0x16, 0x00, 0x00, 0x00, 0x00, 0x00, 0x00, 0x01, 0x10, 0x00, 0x00, 0x00, 0x10, 0x00, 0x00, 0x00, 0x02, 0x00, 0x00, 0x00, 0x1C, 0x00, 0x00, 0x00, 0x98, 0xFF, 0xFF, 0xFF, 0x0E, 0x00, 0x00, 0x00, 0x61, 0x72, 0x69, 0x74, 0x68, 0x2E, 0x63, 0x6F, 0x6E, 0x73, 0x74, 0x61, 0x6E, 0x74, 0x00, 0x00, 0x02, 0x00, 0x00, 0x00, 0x02, 0x00, 0x00, 0x00, 0x08, 0x00, 0x00, 0x00, 0x00, 0x00, 0x16, 0x00, 0x1C, 0x00, 0x18, 0x00, 0x00, 0x00, 0x14, 0x00, 0x10, 0x00, 0x0C, 0x00, 0x00, 0x00, 0x00, 0x00, 0x08, 0x00, 0x07, 0x00, 0x16, 0x00, 0x00, 0x00, 0x00, 0x00, 0x00, 0x01, 0x14, 0x00, 0x00, 0x00, 0x24, 0x00, 0x00, 0x00, 0x24, 0x00, 0x00, 0x00, 0x01, 0x00, 0x00, 0x00, 0x38, 0x00, 0x00, 0x00, 0x03, 0x00, 0x00, 0x00, 0xFF, 0xFF, 0xFF, 0xFF, 0x06, 0x00, 0x00, 0x00, 0x03, 0x00, 0x00, 0x00, 0x04, 0x00, 0x04, 0x00, 0x04, 0x00, 0x00, 0x00, 0x17, 0x00, 0x00, 0x00, 0x73, 0x65, 0x72, 0x76, 0x69, 0x6E, 0x67, 0x5F, 0x64, 0x65, 0x66, 0x61, 0x75, 0x6C, 0x74, 0x5F, 0x69, 0x6E, 0x70, 0x75, 0x74, 0x3A, 0x30, 0x00, 0x03, 0x00, 0x00, 0x00, 0x01, 0x00, 0x00, 0x00, 0x06, 0x00, 0x00, 0x00, 0x03, 0x00, 0x00, 0x00, 0x03, 0x00, 0x00, 0x00, 0x30, 0x00, 0x00, 0x00, 0x14, 0x00, 0x00, 0x00, 0x04, 0x00, 0x00, 0x00, 0xE8, 0xFF, 0xFF, 0xFF, 0x19, 0x00, 0x00, 0x00, 0x00, 0x00, 0x00, 0x19, 0xF4, 0xFF, 0xFF, 0xFF, 0x09, 0x00, 0x00, 0x00, 0x00, 0x00, 0x00, 0x09, 0x0C, 0x00, 0x0C, 0x00, 0x0B, 0x00, 0x00, 0x00, 0x00, 0x00, 0x04, 0x00, 0x0C, 0x00, 0x00, 0x00, 0x16, 0x00, 0x00, 0x00, 0x00, 0x00, 0x00, 0x16
};
